:14000000fff88777fff2f113001b26c0000241fdfffd20198c
:140001000029f362000c1d080047121b00424bdc0014987043
:14000200ffea9a91002b06a300391490004559b4fff23f465d
:140003000027e47a002bfe5d00315fee003361bb002d3c3672
:14000400fffe2b6bffef92b0001238daffea8944ffe7edc8b0
:140005000015f45effd9f0c30000cb10002c912affe4317ba4
:14000600ffe10c0bffeca59c00207fccffeddf11ffe2415ffb
:14000700fff1fd7a00071b2600057785fff114f50011d6bf96
:14000800ffdc779a00112fa1ffdc039b00127f3d002af1aa0b
:14000900fff3dc05000764ae0013b80bffe2824100119a844e
:14000a000006ee42ffd49518000e3ac10015e8600001ca19e2
:14000b000026ec18000ae0f40033ca9700016b0e00449a5697
:14000c000035768a0021df11ffeb85a5ffd669adffd8533b36
:14000d00fff78c54000a5b750001460e00107853ffec6eb1f5
:14000e00002b5bd5003b5bd50011d042004bf727fffc5953e5
:14000f00fffe6b27000d79f2ffdb28b7001afe1e0002a8ca73
:14001000ffebae04000a9c880010f6f10010d489ffe80f3484
:14001100fff606a70021a177ffed0b52fff597f6000b91f7a3
:140012000023e6c5004adcb10031bda50010737900178bdf25
:14001300003fb4a200427d03002aceee00100f34001113c75e
:14001400ffe566cfffce3f14ffebf1faff9e4303ffc52e7382
:14001500ffe280490014c3b1ffdb78abfff17b74ffeaa5d764
:14001600006a6d4800337803ffe3367affc978d5ff93dba154
:14001700001facc5000b04bcffde91a7ffd7ae14fff1fb2fb3
:14001800003a0ee9000c2470ffd2d624ffccf6160009dc621a
:14001900fffa481ffff20ec7001b1e3afff1e7640007c340f5
:14001a00000c8440001a62ccffe595570002ee420020be0ecc
:14001b00ffd3d1cc0001787afff04791ffe5b4ccffdfdaa5e7
:14001c00fff539eb001a511affd1ab4b0013e708ffd7feb0e7
:14001d0000517b74003cb68500187f880034e5b40020572a8b
:14001e000006e32effe245f6ffc89f41fffb36370018f7443a
:14001f00fff3b3310011c9e60031ea36ffedfa2200478e9f6a
:00000001FF