:140000000063bc2c0015537a0022c908ffc2d8c3ff85306a52
:140001000040e8a70007ad7d00777e3d006e516e001833e859
:14000200ffad7dbf001e3d1d0039e0610054e1c6ff9e2f5aef
:1400030000494b9d004e48e90056718b0059cfff004e3b2512
:14000400006adea9000ebce8001961b3ffb61c58ff9a0664ec
:1400050000287358ffb4245f00001e4d00578812ffd137f467
:14000600ffb81062ffc9f55a00244da9ffc6540dffaf5a322c
:14000700ffbb37caffe98506ffe7f5e8ffbe4d7f00036d7685
:00000001FF