:0800000000c8f909ff7b98c854
:08000100ff96a359002546b249
:08000200ffdf65fe008da51271
:080003000026b0750088201de5
:0800040000558256ffbc17ec09
:08000500009afb7fffbd50874c
:08000600ffc00b24fff0bd3424
:080007000061c8c9ffd6a16227
:0800080000322db6006e4a38eb
:08000900009c06e2ffce373730
:08000a0000735c7dff9da5b9a8
:08000b00ff76c80cffffe0d1f5
:08000c00fff8a527001f1023d7
:08000d000070850affedf30eff
:08000e00ffcb40f6002f54f374
:08000f0000c6ba49feffdf3b09
:0800100000633333ff90b6d802
:08001100002e1134ff995a087a
:08001200ffbad96a004bbe23be
:08001300ff975e20fff2dbc63f
:08001400ff995810ffe5399730
:08001500ffd01648005c0f67e4
:08001600ffb4725c0030feef44
:08001700ffacce1c0072d2dd2b
:08001800ffd2f3a1006284e0b5
:080019000056171affa82fd7ab
:08001a00003cf4c70050a47f74
:08001b00ffee6202004d53ce1e
:08001c00008de5f3ffb7eb07cf
:08001d00ffb7bd270039782d63
:08001e00008effc1fff2043a5d
:08001f00ffce108c0049d3460e
:00000001FF