:14000000ffb18e75000a1e93ffff6984ff9266ba000e62244e
:1400010000b8fba9ffdff23dffd76d33ff952f1bffd46a7f72
:14000200ffd31c43006a5269ffc95033ffcd92b8003253b9f5
:14000300009475a30057d4170073badc004ec2270057bbd8d1
:14000400ffba14cffff138acffadc5d6ffab2ca5ffd56580fd
:14000500ffedc66d001d37a0fff7dbb1fffee5130002e9254d
:140006000005a32b00076f1affff54c3ffd320320028f90920
:14000700ff8bb795ffb9320effec6d2fff99a2c6fffd22531f
:00000001FF