:140000000054fbfc003814f90043c2b900430f2800009e0f77
:14000100fec69ad4ff73391900858256008c80c700fddcc626
:140002000036ef5f004de3fc002f5ad900560f3d003361138f
:14000300ffeb75a7002bc558ffd0d5a60014244f000bc925d1
:1400040000062ced0051335dffda1cacffa372c500580150c5
:14000500fff7762efffb26c0002d42c4ffc6a551001ea74872
:14000600ffff66f20001d8feffff287efff0a9bd0018192a65
:14000700ff9d3ae7ff962047003e9b7c00376e83ffc80000e8
:00000001FF